/**
  ******************************************************************************
  * @file    breath_mlp_data_params.c
  * @author  AST Embedded Analytics Research Platform
  * @date    2026-05-20T17:24:56+0900
  * @brief   AI Tool Automatic Code Generator for Embedded NN computing
  ******************************************************************************
  * Copyright (c) 2026 STMicroelectronics.
  * All rights reserved.
  *
  * This software is licensed under terms that can be found in the LICENSE file
  * in the root directory of this software component.
  * If no LICENSE file comes with this software, it is provided AS-IS.
  ******************************************************************************
  */

#include "breath_mlp_data_params.h"


/**  Activations Section  ****************************************************/
ai_handle g_breath_mlp_activations_table[1 + 2] = {
  AI_HANDLE_PTR(AI_MAGIC_MARKER),
  AI_HANDLE_PTR(NULL),
  AI_HANDLE_PTR(AI_MAGIC_MARKER),
};




/**  Weights Section  ********************************************************/
AI_ALIGNED(32)
const ai_u64 s_breath_mlp_weights_array_u64[575] = {
  0xc0b05e7c3c1981d6U, 0x43c3094d3d8d7724U, 0x390c5aa043d4d9ceU, 0x4329db654429db0dU,
  0x452dc88e4565d652U, 0x431fd3d0441d426dU, 0x3f19e5014192de59U, 0x3df77a5c3e407e7fU,
  0xc0fc2bb73cfcee5aU, 0xbf92443e4100de2bU, 0xbf8b4f8440409697U, 0xbec0bcc93fb96f5aU,
  0x3e1dece83f3b2239U, 0x3d8df1093f02a62eU, 0xbc83b87e3ee84a52U, 0x3bbad836bca2e017U,
  0x3bbd61c93834305aU, 0x3b01f5b2b9ccfe98U, 0xbafdd3103a7aa34fU, 0xbad86f62bb86de03U,
  0xba5ca73139da7649U, 0xbd8136623b208d26U, 0x3c81f4153bbf76afU, 0x3beb3df63c1d5f88U,
  0x3b7b2a873b872399U, 0xbb15489bbb11a5e8U, 0x3a99d559ba95feb1U, 0x3b0a22d5bb126029U,
  0xbf0240d2c0d982f4U, 0xba164aea3f0ce614U, 0xc5b26345b9fc1c31U, 0x3918d9f43a851fe1U,
  0xb4f1b02db6875c0aU, 0xb71376d2b7f9677fU, 0x3e7e833bba0cb9b4U, 0x3ff295f03e862a74U,
  0xbd0fe52ac01803ccU, 0xbece4e763e3223c0U, 0x3e16c0efbdce7882U, 0xbdc79cc5bc246100U,
  0xbe68f8f03f41f124U, 0x3d86434e3efd2634U, 0x3e3081143edb0b21U, 0xbe883bacbe15edcaU,
  0x3ee24deb3f61bf85U, 0x3cb449debecacddfU, 0xbfca280bbe5b832dU, 0x3f4a7e1f3f033c4cU,
  0xbf7692fdbe66c5e9U, 0xbca2d06b3ee98675U, 0x3ef964be3eeaaec1U, 0x3ff3a8a7be143ff1U,
  0xbf1c5d0d3e51a4cdU, 0xbf8d4f523f77b7ddU, 0xbf51c72440138537U, 0x3f7d22e94007c9c5U,
  0xbf721da8c0a5f377U, 0xb8a6c850bff1c88bU, 0x457cade73b3d5dfcU, 0xba44b8f2396ff308U,
  0xb70159e7b7245d63U, 0xb88eaf9db77962c3U, 0x3f14d7ea3a2985b8U, 0xbf893e8a3eb9b0faU,
  0x3cb2169ec1128fb3U, 0x3d65f4b0bd7c63acU, 0xbe158fb03c5e550eU, 0xbe1ce13ebdce96aeU,
  0xbf07406fbe010e08U, 0x3d1e01c9bf5a0e86U, 0x3f3ffc31bf3cf122U, 0x3e09498d3c7d1cdfU,
  0x3dc3da213e860d3dU, 0x3e9d4706bec6dd21U, 0x3e8e785cbe6a342fU, 0xbf0a33a6bf2ddf60U,
  0xbf8820573f9316aaU, 0x3e204625bf272e21U, 0x3f6a002a3f332d35U, 0x3f8a82113f31af13U,
  0x3db9fd983d472134U, 0xbfbd20e6bfa2f0f7U, 0xbdf683803f2de32fU, 0xbf6fe3e3bf900b51U,
  0xbe738284c1697746U, 0x3a13809b3d80f48cU, 0xc53c796e39db8e3eU, 0xba0783af389b0e40U,
  0xb5781fbf3525a35dU, 0x368c9ce0b83e42c2U, 0x3dbe88a73a190e11U, 0x3f59bc4abe81e7eaU,
  0x3bf7c01abf1480dfU, 0x3dd1b8853e215f73U, 0xbe8f8e11bd95a369U, 0x3efb04d13e6e4810U,
  0xbd12cd053e85754fU, 0x3e4e9f6e3deabe1aU, 0x3e758ac0bd20ce22U, 0x3eff5e4ebda53527U,
  0x3f8782d83ee25393U, 0xbff4e0423fc4915aU, 0xbfa19ebf3e25fb0cU, 0x40010a87bd6d9776U,
  0xbf897deabee7b36aU, 0xbe838b133f80f668U, 0x3fa3effc3fe47988U, 0x3e917a043fdc2a2bU,
  0x3f31f7fb3f6a58fbU, 0xbfa2b221bfe32f4cU, 0xc00e54ccbc90fb31U, 0x3f0c2509bffe9c37U,
  0xbe7a5c8cc102a006U, 0xba0a5527c125b5bdU, 0xc5406e30ba626235U, 0xb99becc3b93451a6U,
  0x35d217d2b70d1781U, 0xb98d205bb7d570f1U, 0xbf992637380d2dd5U, 0x3f75f78f3e65e6bdU,
  0x3c42e293c033a8e3U, 0xbcf307e63df63bebU, 0x3eac8a253e2a7262U, 0xbebd4aea3dd4107bU,
  0xbdc1241e3d914784U, 0xbf14e1a9be6ddb3bU, 0x3d8295733db42d5cU, 0xbcb5dc463cdb5fb2U,
  0x3e4395d03f254eb8U, 0x3f7f32e43f6cef0aU, 0x3e9ee3b7bf2e30cfU, 0xbf846088bf0aa558U,
  0xbd2ff1c23f90c92eU, 0xbe3cbd7c3e8c0967U, 0xbd8e2df23fac0e85U, 0xbf1de4e33ed4919aU,
  0x40459f483f8c51d4U, 0x3fe5f2f0bf9850f5U, 0xbf914fe7bc0d8981U, 0x408902b2beb211f5U,
  0xbc923787c196117aU, 0xba77b3f33fc58db6U, 0xc59be3c53a760a31U, 0x3a56a3043a008814U,
  0xb606cfcfb5900985U, 0xb8fa5b56b6fb15a5U, 0xbef69ff3ba8d7f95U, 0x3eed3a3ebc526252U,
  0xbc88b07c402c8492U, 0x3df644733d9b0fc5U, 0xbe175907bdc76b37U, 0xbd0de899be9849e6U,
  0x3f02a119bcb24e38U, 0x3e8d5ec8be2ebd83U, 0xbda2e0cabdeee890U, 0xbbeae1e3bd02d053U,
  0xbefa8d36bf6fd43eU, 0x3f35da26be604977U, 0x4006fef13e805e22U, 0xbf396fe83f33c9b7U,
  0x3e86f68dbecf2ee8U, 0xbeaf11f3c00d60eaU, 0xbf6d62443faaf496U, 0xbf14f9bf3f7a677cU,
  0xbe6b77943e0af803U, 0x3f01f451bf972b3eU, 0xbfd40185c010c2daU, 0xbf90d9033fb6cd57U,
  0xbe6172f3c1b3c1f5U, 0xb9db73734043115bU, 0xc41194613add81afU, 0xb9e1ad0b39bc1499U,
  0xb74b1de5b712d007U, 0x363b50aab8cc527cU, 0xbf99b1d9bb10aabaU, 0x405ac69bbfcdc0a1U,
  0xbc099987c08d7773U, 0xbd6dd4e9bdde795bU, 0xbef25e633cbce868U, 0xbeb210c2bb36fb3cU,
  0x3e1508a6be996363U, 0xbe1e634abe8962c5U, 0x3cff21503eeabbd4U, 0xbe4cb100bc81539bU,
  0xbda4b601ba519fb8U, 0x3dbc425cbee168d2U, 0x3cbd7848beca4c92U, 0xbe5ecc133ec281b3U,
  0xbe688f163d5b0b36U, 0xbf2f7d62beaa1c61U, 0x3e883bf53e3bf4cfU, 0x3f3b45cbbf60ba3aU,
  0xbf0e55b2bf74604fU, 0xbeb560cabed6a51dU, 0x40373b16bfc44c49U, 0xbfca56383f0cd4e9U,
  0x3f1f08e440ba3147U, 0x3a23db374000ad3eU, 0xc451461cb9e19c52U, 0xb88da42cb925d335U,
  0xb4f73cddb70b4c28U, 0xb83e071ab7c98e11U, 0xbf2163ab3ad167f2U, 0xbf8793333f9d5c44U,
  0x3d78867a409c472eU, 0x3d7a82ed3b7fc3d1U, 0x3db3861abe655138U, 0xbe83f1eabe0c1defU,
  0xbf2ab4efbeb56d09U, 0xbebe1536bcc94d12U, 0x3f165b83be719e2bU, 0xbcf62944bd50499eU,
  0x3e26a2a63def3b1dU, 0xbe2a25783d2ad684U, 0xbf0ff9a8bf0c9f94U, 0xbf2fe235be2b9d56U,
  0xbf322c013eb9d9c2U, 0x3f2a4cce3ea40f93U, 0xbf006872be8a1f42U, 0x400328433f9a0a10U,
  0xbf20630fbfa774b2U, 0xc0725b3ec0552917U, 0xbef0e03fbf5cb496U, 0xbfe8a945c04f6854U,
  0xbe49cc08c14c2d00U, 0x3a3ceb3fc05d207aU, 0x44ba44de3a0d4822U, 0x39afd49ab9bb66fcU,
  0x35ad2feab72018a3U, 0xb9636527b8371dbdU, 0xbe70c84dba186515U, 0x3f1673d83e3d98dcU,
  0xbd234f0d4010e63eU, 0xbd81d4cbbd4d6504U, 0x395e60693e871461U, 0x3f0855143dfe5039U,
  0xbeaf49d5be1669baU, 0xbf195a473ecdd3b4U, 0x3e0b2c063dc419ceU, 0xbe677aff3dcfaf70U,
  0xbf66fcbdbf0b9413U, 0x3e3420e5bd8f3ce4U, 0x3f834c5ebde6fc01U, 0xbf8e8e68bf319b66U,
  0xbf5206edbe8609efU, 0xbebefd25bfe918afU, 0xbdeaf2ab3fc9663eU, 0x407aabda3fa95680U,
  0xbf25e6d2c054dc9eU, 0x3ea96fbf406efbd3U, 0x3fed04843fdee73dU, 0xbf187e63c0036507U,
  0x3eb768bbc12fd844U, 0x3a1a471dc0ddfd18U, 0xc2994ac43b008186U, 0xb8dee71838b7b833U,
  0xb72d3b7fb6a3309bU, 0x384de97ab5842547U, 0x3f86c36d387066e9U, 0x40520d76bf683038U,
  0x3d6a82f0bfc5ac58U, 0xbe49735fbdb8b6e9U, 0x3edc4ae2bdb85c83U, 0x3ebd1f113e4d8f3eU,
  0xbda9e7303f14cfb7U, 0x3e068e9abd932708U, 0x3f075804befd3e42U, 0xbddd19d0be04ae63U,
  0x3efdeb123d700e00U, 0xbedaf4bf3c93290cU, 0xbd8eaa8abf337323U, 0xbd8897c33f095830U,
  0xbefc29e1bf11ad83U, 0xbef94b5d4006c5e2U, 0x3f5c10943edd5c52U, 0xbe6d9eff3e384f05U,
  0xbcf19b643f865274U, 0x3fb89de5404454c3U, 0x3ff857223f6b1babU, 0x40152c11bf622320U,
  0xbf3c26b8403ad9adU, 0xba18071cbf930eb4U, 0x4544e2ca3804de97U, 0xba21a0fb398da8bfU,
  0xb62f708c3428186eU, 0xb7b93fd2b7a33d4fU, 0x3c89c32039d3d008U, 0xbe927cc3c01af0d0U,
  0xbd365a353fdecc12U, 0xbe50d9543cae7ca3U, 0x3e3fe6d83e2679f7U, 0xbdab6c983ed077d7U,
  0xbd34a481bea8e74aU, 0xbe5c42f9be6dc52cU, 0xbc02c90b3e260e92U, 0xbdc37c36bcfe2dd3U,
  0x3d5fad38bda24dfaU, 0xbed4d4103ef93871U, 0xbc563b26beec72b4U, 0xbe47ff873cdeffadU,
  0xbd9205533e4363caU, 0x3f635ababf30f464U, 0xbf1318073f3a64f1U, 0x405e73ff3f823b28U,
  0x4054d38940104d2bU, 0xc0209ae43fb5a072U, 0x40072ee3bfba9e05U, 0xbe3df4cd3f96fe89U,
  0xbe9508bbc19290c9U, 0xba74843f405cb52dU, 0x450ba7323ae57485U, 0xb99e409db9e66a5bU,
  0xb74d2f63b61bbe06U, 0xb8013bc9b87bad56U, 0x3e00966cba6d46dfU, 0x3f2d705bbf637fcbU,
  0x3cf2b088bf8a29f9U, 0x3e1241e5be4d2479U, 0x3e35bb273e60eaf6U, 0x3eb770153ed3d89cU,
  0xbf0b2b65bf676dddU, 0x3eecc6e53ef839a1U, 0xbda930123f2c0396U, 0xbe4778fabd85f23bU,
  0xbdb96a4d3e5481d7U, 0xbe8437883f336222U, 0x3f513c1fbccc3b39U, 0x3eadd4c03ec68ffcU,
  0xbf28b991bcac941aU, 0xbefd1ec0bf3450f8U, 0x3fd3f27bbe58271eU, 0x3ed295fd401eba57U,
  0xbf8950bb3faecd1fU, 0xbdeadf40bf2d2409U, 0x402df2c13ca49f10U, 0xbe2a40d33fdff690U,
  0x3c5aa3264163900aU, 0xbaf78ea2c0c8975fU, 0x452c9318baeaffc8U, 0x3abe2569ba27ae84U,
  0xb6ec31e0b6828d54U, 0xb90e4143b71eb239U, 0xbf1d248a39121abdU, 0xbf80f2cbbfef0317U,
  0xbcbc82453fb107c0U, 0x3eac0c6bbd6a2a8dU, 0xbd9f418f3d44d563U, 0xbe59fd713df07744U,
  0x3f30b7073e3077d5U, 0x3ee82966bc858383U, 0x3d1fa1633e53dc1cU, 0xbe9fd7d1bdbf50b4U,
  0xbe077be23e6408e1U, 0x3f7cd97bbda87043U, 0x3de59197bf6ebe06U, 0xbf7094cdbedaa188U,
  0xbf5b3ae13eb344f7U, 0xbf098c3ebee56844U, 0x3ffab876bebfa612U, 0x3ef0bd543f165d1dU,
  0x402691213f67f381U, 0x407640683f51d842U, 0x3f0263633ef786a3U, 0x40b353cb40247bdfU,
  0x3e2c33c64170a2dfU, 0x3a03b4ea4159cc4dU, 0x44a079433ac1cb14U, 0x3a8156c43a1cc556U,
  0x36bbbf61b68fe43dU, 0x37d5dde3b7d5df66U, 0x3ee4faec39408d02U, 0xbebd6be8c0567e59U,
  0xbba6c23c40e525bcU, 0x3dc992a43d291c04U, 0xbd288dc7bdbaa326U, 0xbc868dbabd915f11U,
  0x3e5fa0003e2b8d22U, 0x3da191703ee2a7aeU, 0xbed05ae73e79f941U, 0x3e20ea1e3e9c734bU,
  0xbe88d173bf09011eU, 0xbf7356b53fa9f90eU, 0x3f60b8db3fd6eae9U, 0xbf646340bf19c412U,
  0x3f9be69dbd5bfe1bU, 0x3ea75521bf7a1527U, 0xbf52cea63f3fdc05U, 0xbc836308c08a184aU,
  0x3f0426ebc01e3234U, 0xc0a3f25bbff3eba1U, 0x3ecd01f34029316fU, 0x3f19d0a73fc59457U,
  0xbe8b4bb9c1605f81U, 0x3aa83a164066e960U, 0x43e7368439592487U, 0xba26e97f39c2fbf3U,
  0xb656c59eb68bc20dU, 0xb93cd6ffb764f36eU, 0xbe9f46e8baadd154U, 0xbeb03d2e3e6b613aU,
  0x3bd96fc5c0577bd7U, 0x3d1351733e0f803eU, 0x3e591fabbe2598baU, 0x3e88d3d93ead6132U,
  0xbe019dad3e7a1149U, 0x3e479bc4bf35ee6eU, 0x3f49e9ffbf6a56bdU, 0x3eb11f36bbeaa22dU,
  0xbddb9539bd7d29efU, 0xbf3f86fcbd198304U, 0x3eed076ebec4d783U, 0x3ea86556be092d6cU,
  0x3e6214dabe7a4787U, 0xbe19df47be9d2c84U, 0x3f6c9cd83eac3576U, 0x3f96dcf93e2ba394U,
  0xbe88841f40100017U, 0x3df00bd03e3c3155U, 0x40140a4bc05c4dcbU, 0x400c6a97c08f5823U,
  0xbe972141402550b8U, 0xb9da5436c02c8bf7U, 0x44c337d03a88b668U, 0xb98fbff7b7958e65U,
  0xb66bc134b6d03bc2U, 0x3735d16cb8606cb9U, 0x3ddb25c6bacc34ddU, 0x3f62f4813fa122d7U,
  0x3bf04d9dc0e84f7dU, 0xbe1b97333da2d0c7U, 0xbe95dd423cb52130U, 0xbe6512a6bdcb8824U,
  0xbddf07ac3c06b72bU, 0xbe20fffbbe728ff6U, 0x3e7108f0befa9a6fU, 0x3e345157bd2dfd4aU,
  0x3e560d363e1d412aU, 0x3df4fdc5be2981a1U, 0x3e0680613f8ef468U, 0x3f250437be625374U,
  0xbf04c40c3caf54d7U, 0x3fb3fcd7bd8e6dd2U, 0x3e8a89913f6f4dceU, 0xbfd8684ebf3a1c79U,
  0xc0707793bd9c2759U, 0x3f51daf5c00090fbU, 0xc01e2f9bbe682039U, 0x3fa3524fc042fddeU,
  0x3e644932c154ac64U, 0x3a0855cb3fba43f5U, 0xc4e3ff2fba5e5c34U, 0xba4579b93a0ccabcU,
  0xb50d91a9b6252f1bU, 0xb935f0beb6e8fa94U, 0xbebed254ba500b8aU, 0x4001c8f93e6ebb3eU,
  0x3bdb1a9940975816U, 0x3cd911f33da0fe50U, 0xbd10b507bdb37560U, 0x3e74ed66bd953687U,
  0x3e964d993e3c420bU, 0xbe627be93e2121c0U, 0xbd2fb0253f013c4fU, 0xbd3738dc3de0599bU,
  0xbf857f8fbf5573c1U, 0x3f159b3e3dc9321aU, 0x3f2bd2ff3f2df7c6U, 0x3eafcd30bf9025dcU,
  0x3f465fdcbed3e204U, 0x3d8799c3be8c3e72U, 0x3e542aec3f348f90U, 0xbfa04b663f15136cU,
  0xc04a96673e7ba672U, 0x402a2b773ef1b290U, 0x3cf5495bbdf6ebf2U, 0xbf0a34fcbf7e1eccU,
  0x3edc288e3dde6855U, 0x3d5b3a1abceb06d6U, 0x3ec0060dbdba67afU, 0x3e44f4433e0e9849U,
  0x3d683951bdf88c5eU, 0x3e83f8ec3ec5e510U, 0xbdaf9bd63da1a017U, 0xbdd1400b3efb4516U,
  0xbefbee823f5d5109U, 0x3ee99cac3ea4fd2eU, 0xbe4bdd2f3f3a911bU, 0x3e861105be7f3ba7U,
  0xbe4c35573e439345U, 0xbe2153edbea1091dU, 0x3f1d358f3d8f1337U, 0x3e6b17d6be13b6c1U,
  0xbf3573cabcfc67d1U, 0x3ebdc5733eda2088U, 0x3f2c93213e4b89d1U, 0x3f4e6152bef60666U,
  0x3e7cc86d3e1418e7U, 0xbdd0d014bd7c3d0fU, 0xbd804fe3bec11576U, 0xbeafd73e3eeb45e5U,
  0xbdd663dc3f259ff5U, 0xbe29ee05bef38d0bU, 0xbd784348bed62634U, 0x3e513a193eee0af6U,
  0x3e71a5af3eafe4a2U, 0xbef179033f5f16c6U, 0xbf412f223ea41a92U, 0x3de2029abf041d36U,
  0x3e451d0cbe9790fcU, 0xbe585e67bc6736f3U, 0x3f4e46d0bf62e270U, 0xbe40cf2e3f6068d6U,
  0x3eb4ad0dbe89dcbaU, 0x3f397dbc3f41bc2eU, 0x3e4213f43efea68dU, 0x3d9367c83f4e0df9U,
  0x3f2948603f0ed0f9U, 0x3e88d6913e51a6ecU, 0x3caa8da4bca0e9beU, 0x3e0aae843d936d70U,
  0x3ebe9bf53e8f9f59U, 0xbf01ffa03e9b43f7U, 0x3d6f21333eb4314eU, 0x3f02b991befe4debU,
  0x3ef38d56bf358d1aU, 0xbdc5975f3f61dc1eU, 0x3eb0972c3eaace47U, 0xbe5ff5d5bee0a12fU,
  0xbf0cb0cabecbef5aU, 0x3f2a155fbe9e0cb0U, 0x3e77669fbeba35ddU, 0xbf05f79e3e83ccb0U,
  0x3e2d09f63e2001b2U, 0xbceeb493be161ff4U, 0xbf2cbe54bdcd8e4cU, 0x3e6d9e3d3f40e088U,
  0x3f5905003f6c80eeU, 0xbd6a5c033e3f97a6U, 0xbf462f313df5d0c5U, 0x3d97887e3f0460c2U,
  0xbe49e1c83d85999eU, 0x3ee24d633ed58c0eU, 0xbf165b61be547c3aU, 0x3df299573ec95785U,
  0xbeb0e99cbe31c339U, 0xbed886d93eb03718U, 0xbe5171bcbf041b82U, 0x3e8d9ccabf48d674U,
  0x3d4f15883b857a98U, 0x3edab0b23e83d519U, 0x3ead55f2bcb0e119U, 0xbe3924953e2f1b28U,
  0x3f492dec3ee6b956U, 0xbf27204bbf43fe89U, 0xbea13cbbbea100aaU, 0x3eacb0dc3eabfbbbU,
  0xbf91f44b3e88c6a6U, 0xbee064e13d10a697U, 0xbfb19f463f3a2855U, 0x3f1acdcb3e395256U,
  0xbde6afdabf5edd0dU, 0x3f0fed28be56a510U, 0x3ea27e90beaf1c91U, 0x3e392f18bf7c4a66U,
  0xbf13a8febf6473e7U, 0xbd7805d13fa5e792U, 0x3f86516fbee32c91U, 0xbefd393abea39b97U,
  0xbeb507b0bcd2ff43U, 0x3df8f21abdc32f34U, 0x3dc9debabef2cee5U, 0xbf4c6f7e3fafe264U,
  0xbe8ec1cdbde66573U, 0x3e3cbf0d3e82cf08U, 0x3d9833ebU,
};


ai_handle g_breath_mlp_weights_table[1 + 2] = {
  AI_HANDLE_PTR(AI_MAGIC_MARKER),
  AI_HANDLE_PTR(s_breath_mlp_weights_array_u64),
  AI_HANDLE_PTR(AI_MAGIC_MARKER),
};

